{"[PAD]": 0, "[UNK]": 1, "[CLS]": 2, "[SEP]": 3, "[MASK]": 4, "!": 5, "\"": 6, "#": 7, "###": 121, "##'": 9, "##(": 10, "##*": 11, "##,": 12, "##-": 13, "##.": 14, "##/": 15, "##0": 16, "##1": 17, "##2": 18, "##3": 19, "##4": 20, "##5": 21, "##6": 22, "##7": 23, "##8": 24, "##9": 25, "##;": 26, "##a": 27, "##b": 28, "##c": 29, "##d": 30, "##e": 31, "##f": 32, "##g": 33, "##h": 34, "##i": 35, "##j": 36, "##k": 37, "##l": 38, "##m": 39, "##n": 40, "##o": 41, "##p": 42, "##q": 43, "##r": 44, "##s": 45, "##t": 46, "##u": 47, "##v": 48, "##w": 49, "##x": 50, "##y": 51, "##z": 52, "##\u00e9": 53, "##\u00ef": 54, "##\u2014": 55, "%": 56, "&": 57, "'": 58, "(": 59, ")": 60, "*": 61, ",": 62, "-": 63, ".": 64, "/": 65, "1": 66, "2": 67, "3": 68, "4": 69, "5": 70, "6": 71, "7": 72, "8": 73, "9": 74, ":": 75, ";": 76, "=": 77, "?": 78, "@": 79, "[": 80, "]": 81, "a": 82, "b": 83, "c": 84, "d": 85, "e": 86, "f": 87, "g": 88, "h": 89, "i": 90, "j": 91, "k": 92, "l": 93, "m": 94, "n": 95, "o": 96, "p": 97, "q": 98, "r": 99, "s": 100, "t": 101, "u": 102, "v": 103, "w": 104, "x": 105, "y": 106, "z": 107, "\u00a9": 108, "\u2013": 109, "\u2014": 110, "##//": 111, "**": 112, "**(": 113, "##--": 114, "##**": 115, "://": 116, "##": 117, "####": 121, "######": 121, "#####": 121, "##';": 121, ")'": 122, ")**": 123, "52": 124, "525": 125, "5254": 126, "522": 127, "\".": 128, "\";": 129, "\",": 130, "),": 131, "--": 132, "---": 133, "47": 134, "##97": 135, "##977": 136, "1977": 137, "27": 138, "37": 139, "67": 140, "77": 141, "57": 142, "17": 143, "42": 144, "32": 145, "62": 146, "22": 147, "72": 148, "12": 149, "41": 150, "31": 151, "21": 152, "61": 153, "71": 154, "51": 155, "11": 156, "44": 157, "24": 158, "34": 159, "64": 160, "74": 161, "54": 162, "14": 163, "43": 164, "45": 165, "46": 166, "48": 167, "49": 168, "33": 169, "35": 170, "36": 171, "38": 172, "39": 173, "##99": 174, "29": 175, "69": 176, "79": 177, "59": 178, "19": 179, "28": 180, "68": 181, "78": 182, "58": 183, "23": 184, "63": 185, "73": 186, "53": 187, "25": 188, "65": 189, "75": 190, "55": 191, "26": 192, "66": 193, "76": 194, "56": 195, "15": 196, "16": 197, "13": 198, "##03": 199, "##003": 200, "18": 201, "10": 202, "100": 203, "50": 204, "70": 205, "700": 206, "7000": 207, "40": 208, "30": 209, "20": 210, "200": 211, "80": 212, "60": 213, "';": 214, "'';": 215, "',": 216, "##8x": 217, ".**": 218, ".,": 219, "b003": 220, "m\u00e9": 221, "##\u00efv": 222, "ex": 223, "##zz": 224, "b003y": 225, "b003y8x": 226, "ev": 227, "qu": 228, "##qu": 229, "##kq": 230, "of": 231, "ju": 232, "##h99": 233, "##kh99": 234, "equ": 235, "exqu": 236, "exp": 237, "##\u2014w": 238, "##\u2014wh": 239, "##w\u2014wh": 240, "b003y8xl": 241, "b003y8xlkq": 242, "m\u00e9l": 243, "##s\u2014w": 244, "##ss\u2014w": 245, "m\u00e9la": 246, "##a\u00efv": 247, "na\u00efv": 248, "equa": 249, "equal": 250, "##\u2014j": 251, "##\u2014ju": 252, "##s\u2014ju": 253, "##s\u2014jus": 254, "##rs\u2014jus": 255, "##rs\u2014just": 256, "200t": 257, "200th": 258, "\u2013w": 259, "\u2013wh": 260, "##xp": 261, "##x\u2014": 262, "jux": 263, "##xpl": 264, "##x\u2014a": 265, "juxt": 266, "juxta": 267, "juxtap": 268, "juxtapo": 269, "juxtapos": 270, "##ow\u2014wh": 271, "##dow\u2014wh": 272, "##adow\u2014wh": 273, "##hadow\u2014wh": 274, "shadow\u2014wh": 275, "yo": 276, "you": 277, "yol": 278, "yolk": 279, "th": 280, "\u2014h": 281, "\u2014a": 282, "##zzl": 283, "##uzz": 284, "buzz": 285, "##cuzz": 286, "##acuzz": 287, "jacuzz": 288, "jus": 289, "jub": 290, "just": 291, "exqui": 292, "exquis": 293, "exquisi": 294, "exquisit": 295, "jubi": 296, "jubil": 297, "jubila": 298, "##ss\u2014wi": 299, "##ss\u2014wit": 300, "##ss\u2014with": 301, "equi": 302, "equiv": 303, "equil": 304, "equiva": 305, "equival": 306, "equili": 307, "equilib": 308, "equilibr": 309, "equilibri": 310, "equilibriu": 311, "equilibrium": 312, "shadow\u2014whi": 313, "shadow\u2014whic": 314, "shadow\u2014which": 315, "jacuzzi": 316, "m\u00e9lan": 317, "m\u00e9lang": 318, "\u2014an": 319, "\u2014and": 320, "##x\u2014an": 321, "##x\u2014and": 322, "##xpli": 323, "##xplic": 324, "##xplica": 325, "##xplicab": 326, "##xplicabl": 327, "##xplicably": 328, "##xplicabi": 329, "##xplicabil": 330, "##xplicabili": 331, "##xplicabilit": 332, "##xplicabiliti": 333, "##\u2014whi": 334, "##\u2014whic": 335, "##\u2014which": 336, "##s\u2014whi": 337, "##s\u2014whis": 338, "##s\u2014whisp": 339, "##\u2014who": 340, "##t\u2014who": 341, "wh": 342, "##xpla": 343, "##xplo": 344, "##xplor": 345, "##xplai": 346, "##xplain": 347, "##xplaina": 348, "##xplainab": 349, "##xplainabl": 350, "##xplainably": 351, "##ck": 352, "##aj": 353, "maj": 354, "##ju": 355, "##bj": 356, "obj": 357, "##juv": 358, "abj": 359, "##ubj": 360, "subj": 361, "##jud": 362, "##bju": 363, "##bjug": 364, "##ubjug": 365, "subjug": 366, "subjuga": 367, "##raj": 368, "traj": 369, "caj": 370, "taj": 371, "cajo": 372, "cajol": 373, "subjugat": 374, "##jur": 375, "##judi": 376, "##judic": 377, "##njur": 378, "injur": 379, "##onjur": 380, "conjur": 381, "##nju": 382, "##onju": 383, "conju": 384, "conjun": 385, "conjunc": 386, "conjunct": 387, "conjuncti": 388, "conjunctio": 389, "conjunction": 390, "##jo": 391, "ej": 392, "##joy": 393, "##joi": 394, "##joic": 395, "##njoy": 396, "enjoy": 397, "##oj": 398, "##roj": 399, "proj": 400, "##s\u2014which": 401, "##rs\u2014which": 402, "yours\u2014which": 403, "##ss\u2014which": 404, "##azzl": 405, "dazzl": 406, "##dazzl": 407, "##razzl": 408, "frazzl": 409, "dazzli": 410, "dazzlin": 411, "dazzling": 412, "##izzl": 413, "sizzl": 414, "##uzzl": 415, "guzzl": 416, "puzzl": 417, "##izzly": 418, "fizzl": 419, "##ozzl": 420, "nozzl": 421, "##rizzly": 422, "grizzly": 423, "sizzli": 424, "sizzlin": 425, "sizzling": 426, "un": 427, "up": 428, "ux": 429, "uxo": 430, "uxor": 431, "uxori": 432, "uxorio": 433, "uxoriou": 434, "uxorious": 435, "unf": 436, "ub": 437, "ubi": 438, "ubiqu": 439, "ubiqui": 440, "ubiquit": 441, "ubiquito": 442, "ubiquitou": 443, "ubiquitous": 444, "ubiquitousl": 445, "ubiquitously": 446, "uxoriousl": 447, "uxoriously": 448, "##\u2014qu": 449, "##s\u2014qu": 450, "##cks\u2014qu": 451, "##acks\u2014qu": 452, "backs\u2014qu": 453, "buzzi": 454, "buzzin": 455, "buzzing": 456, "##iz": 457, "##az": 458, "unfaz": 459, "laz": 460, "##maz": 461, "amaz": 462, "##laz": 463, "blaz": 464, "haz": 465, "gaz": 466, "gazi": 467, "gazin": 468, "gazing": 469, "blazi": 470, "blazin": 471, "blazing": 472, "lazi": 473, "lazy": 474, "amazo": 475, "amazi": 476, "amazon": 477, "amazin": 478, "amazing": 479, "amazingl": 480, "amazingly": 481, "raz": 482, "razo": 483, "razor": 484, "##azy": 485, "maz": 486, "lazin": 487, "lazil": 488, "lazily": 489, "ow": 490, "own": 491, "owl": 492, "us": 493, "jubilan": 494, "jubilant": 495, "jubilat": 496, "jubilati": 497, "jubilatio": 498, "jubilation": 499, "jubilatin": 500, "jubilating": 501, "to": 502, "upo": 503, "upon": 504, "##oz": 505, "ooz": 506, "coz": 507, "cozy": 508, "doz": 509, "cozi": 510, "cozil": 511, "cozily": 512, "##roz": 513, "froz": 514, "##doz": 515, "##ooz": 516, "##ldoz": 517, "##lldoz": 518, "##ulldoz": 519, "bulldoz": 520, "##oozi": 521, "##noozi": 522, "snoozi": 523, "snoozin": 524, "snoozing": 525, "dozi": 526, "dozin": 527, "dozing": 528, "tow": 529, "towa": 530, "towar": 531, "toward": 532, "towards": 533, "##ow": 534, "how": 535, "pow": 536, "dow": 537, "sw": 538, "down": 539, "now": 540, "tw": 541, "twi": 542, "two": 543, "twin": 544, "twink": 545, "twinkl": 546, "twis": 547, "twist": 548, "twil": 549, "twic": 550, "twili": 551, "twilig": 552, "twiligh": 553, "twilight": 554, "twinkli": 555, "twinklin": 556, "twinkling": 557, "dw": 558, "twists": 559, "##ly": 560, "jubilantly": 561, "blazingly": 562, "hazy": 563, "my": 564, "##bly": 565, "##ably": 566, "##ibly": 567, "##mbly": 568, "##cibly": 569, "##gibly": 570, "##igibly": 571, "##rigibly": 572, "##rrigibly": 573, "##orrigibly": 574, "##corrigibly": 575, "##ncorrigibly": 576, "incorrigibly": 577, "##ngibly": 578, "##angibly": 579, "tangibly": 580, "##tangibly": 581, "##ntangibly": 582, "intangibly": 583, "##ncibly": 584, "##scibly": 585, "##ascibly": 586, "##rascibly": 587, "irascibly": 588, "##rcibly": 589, "##orcibly": 590, "forcibly": 591, "##incibly": 592, "##vincibly": 593, "##nvincibly": 594, "invincibly": 595, "##yx": 596, "##hyx": 597, "##phyx": 598, "##sphyx": 599, "asphyx": 600, "asphyxi": 601, "asphyxia": 602, "asphyxiat": 603, "##umbly": 604, "humbly": 605, "##imbly": 606, "nimbly": 607, "expl": 608, "explo": 609, "explor": 610, "explori": 611, "explorin": 612, "exploring": 613, "ul": 614, "ult": 615, "ulti": 616, "ultim": 617, "ultima": 618, "ultimat": 619, "asphyxiati": 620, "asphyxiatin": 621, "asphyxiating": 622, "##dazzli": 623, "##dazzlin": 624, "##dazzling": 625, "##ng": 626, "jung": 627, "jug": 628, "jugg": 629, "jungl": 630, "juggl": 631, "##gh": 632, "ug": 633, "ugly": 634, "ugl": 635, "jum": 636, "jump": 637, "ugli": 638, "uglin": 639, "##gably": 640, "##igably": 641, "##tigably": 642, "##atigably": 643, "##fatigably": 644, "jud": 645, "judg": 646, "judi": 647, "judic": 648, "judici": 649, "judicio": 650, "judiciou": 651, "judicious": 652, "judiciously": 653, "##ght": 654, "##ugh": 655, "##ghb": 656, "##ghbo": 657, "##ough": 658, "##augh": 659, "laugh": 660, "##ghbor": 661, "##ghty": 662, "##igh": 663, "high": 664, "sigh": 665, "##ighbor": 666, "##ighty": 667, "##mighty": 668, "mighty": 669, "##ughty": 670, "##lmighty": 671, "almighty": 672, "##aughty": 673, "naughty": 674, "##hough": 675, "##though": 676, "##lthough": 677, "although": 678, "##rough": 679, "through": 680, "##roughly": 681, "trough": 682, "##oroughly": 683, "thoroughly": 684, "though": 685, "##nough": 686, "enough": 687, "##lough": 688, "plough": 689, "##ing": 690, "conjuring": 691, "##ighing": 692, "##izing": 693, "##joicing": 694, "oozing": 695, "ploughing": 696, "##zing": 697, "eng": 698, "jumping": 699, "engu": 700, "engul": 701, "engulf": 702, "engulfing": 703, "laughing": 704, "##ight": 705, "night": 706, "##ught": 707, "might": 708, "right": 709, "light": 710, "fight": 711, "sight": 712, "##light": 713, "highlight": 714, "slight": 715, "tight": 716, "tightly": 717, "##ought": 718, "sought": 719, "thought": 720, "##aught": 721, "laught": 722, "fought": 723, "##rought": 724, "drought": 725, "brought": 726, "wrought": 727, "##hought": 728, "##houghts": 729, "##thoughts": 730, "##rthoughts": 731, "daught": 732, "taught": 733, "enjoying": 734, "##nlight": 735, "enlight": 736, "##ylight": 737, "alight": 738, "flight": 739, "##unlight": 740, "sunlight": 741, "##onlight": 742, "##oonlight": 743, "moonlight": 744, "##aylight": 745, "daylight": 746, "biz": 747, "biza": 748, "bizar": 749, "bizarr": 750, "##ighbors": 751, "##ighboring": 752, "##ighborh": 753, "##ighborho": 754, "##ighborhoo": 755, "##ighborhood": 756, "nighting": 757, "nightinga": 758, "nightingal": 759, "##izingly": 760, "##lizingly": 761, "##alizingly": 762, "##nizingly": 763, "##onizingly": 764, "##gonizingly": 765, "agonizingly": 766, "##talizingly": 767, "##ntalizingly": 768, "##antalizingly": 769, "tantalizingly": 770, "##nalizingly": 771, "fighting": 772, "alighting": 773, "##laught": 774, "slaught": 775, "##slaught": 776, "##nslaught": 777, "onslaught": 778, "##raught": 779, "haught": 780, "draught": 781, "fraught": 782, "haughti": 783, "haughtily": 784, "##traught": 785, "##straught": 786, "##istraught": 787, "distraught": 788, "##gg": 789, "egg": 790, "eggs": 791, "##gging": 792, "expli": 793, "explic": 794, "explici": 795, "explicit": 796, "explicitly": 797, "##liz": 798, "no": 799, "##azi": 800, "##azily": 801, "##haz": 802, "##phaz": 803, "##aphaz": 804, "haphaz": 805, "haphaza": 806, "haphazar": 807, "haphazard": 808, "haphazardly": 809, "##raz": 810, "braz": 811, "##ch": 812, "ch": 813, "co": 814, "com": 815, "comp": 816, "comm": 817, "comf": 818, "coming": 819, "comfo": 820, "comfor": 821, "comfort": 822, "comfortably": 823, "comforting": 824, "comfortingly": 825, "cou": 826, "cong": 827, "congl": 828, "conglo": 829, "conglom": 830, "coul": 831, "could": 832, "coun": 833, "count": 834, "countl": 835, "cour": 836, "couch": 837, "coup": 838, "coupl": 839, "cous": 840, "cousi": 841, "cousin": 842, "coura": 843, "courag": 844, "cours": 845, "court": 846, "courty": 847, "courtya": 848, "courtyar": 849, "courtyard": 850, "compa": 851, "compl": 852, "compas": 853, "compass": 854, "compassi": 855, "compassio": 856, "compassion": 857, "compassiona": 858, "compassionat": 859, "cock": 860, "cockr": 861, "cockro": 862, "cockroa": 863, "cockroach": 864, "cockt": 865, "cockta": 866, "cocktai": 867, "cocktail": 868, "cocktails": 869, "##th": 870, "exh": 871, "##wh": 872, "##ywh": 873, "##xh": 874, "##xha": 875, "##xhau": 876, "##xhaus": 877, "##xhaust": 878, "##xhaustibly": 879, "##how": 880, "show": 881, "##show": 882, "##dshow": 883, "##udshow": 884, "##oudshow": 885, "##loudshow": 886, "cloudshow": 887, "##xhausti": 888, "##xhaustib": 889, "##xhaustibl": 890, "##nshow": 891, "##inshow": 892, "##ainshow": 893, "rainshow": 894, "##rwh": 895, "sh": 896, "noth": 897, "nothing": 898, "##rywh": 899, "##nywh": 900, "anywh": 901, "##ph": 902, "##phiz": 903, "##ophiz": 904, "##sophiz": 905, "##osophiz": 906, "##losophiz": 907, "##ilosophiz": 908, "##hilosophiz": 909, "philosophiz": 910, "##kh": 911, "##mph": 912, "##umph": 913, "emph": 914, "empha": 915, "emphat": 916, "emphati": 917, "emphatic": 918, "##iumph": 919, "##riumph": 920, "triumph": 921, "triumpha": 922, "triumphan": 923, "triumphant": 924, "triumphantly": 925, "emphatica": 926, "emphatical": 927, "emphatically": 928, "exhi": 929, "exhil": 930, "exhib": 931, "exha": 932, "exhau": 933, "exhal": 934, "exhaus": 935, "exhaust": 936, "exhila": 937, "exhibi": 938, "exhibit": 939, "exhilar": 940, "exhilara": 941, "exhilarat": 942, "exhilarating": 943, "exhilarati": 944, "exhilaratio": 945, "exhilaration": 946, "exhilaratingly": 947, "gh": 948, "gha": 949, "gho": 950, "ghou": 951, "ghoul": 952, "ghas": 953, "ghast": 954, "ghastly": 955, "ghos": 956, "ghost": 957, "ghouli": 958, "ghoulis": 959, "ghoulish": 960, "ghoulishly": 961, "ghastl": 962, "ghastli": 963, "ghasti": 964, "ghastily": 965, "ut": 966, "utt": 967, "um": 968, "ump": 969, "umpt": 970, "ur": 971, "urg": 972, "urch": 973, "urchi": 974, "urchin": 975, "urchins": 976, "nowh": 977, "sp": 978, "sk": 979, "sky": 980, "ski": 981, "sku": 982, "skul": 983, "skull": 984, "skin": 985, "skip": 986, "skipp": 987, "skipping": 988, "nob": 989, "nobo": 990, "nobod": 991, "nobody": 992, "nobl": 993, "##sibly": 994, "##nsibly": 995, "##libly": 996, "##llibly": 997, "##allibly": 998, "##fallibly": 999, "##nfallibly": 1000, "infallibly": 1001, "##dibly": 1002, "##ribly": 1003, "##rribly": 1004, "##ssibly": 1005, "##ossibly": 1006, "possibly": 1007, "##possibly": 1008, "##mpossibly": 1009, "impossibly": 1010, "##isibly": 1011, "##visibly": 1012, "##nvisibly": 1013, "invisibly": 1014, "##owing": 1015, "cow": 1016, "cowa": 1017, "cowar": 1018, "coward": 1019, "cowardly": 1020, "##sh": 1021, "rh": 1022, "rhy": 1023, "rhyth": 1024, "rhym": 1025, "rhythm": 1026, "ph": 1027, "rhyming": 1028, "rha": 1029, "rhap": 1030, "rhaps": 1031, "rhapso": 1032, "rhapsod": 1033, "unsh": 1034, "unsha": 1035, "unshak": 1036, "unshakably": 1037, "unshav": 1038, "unshaka": 1039, "unshakab": 1040, "unshakabl": 1041, "##shing": 1042, "rhapsodi": 1043, "rhapsody": 1044, "rhapsodic": 1045, "##shingly": 1046, "##ishingly": 1047, "##vishingly": 1048, "##avishingly": 1049, "ravishingly": 1050, "##nishingly": 1051, "##onishingly": 1052, "##tonishingly": 1053, "##stonishingly": 1054, "astonishingly": 1055, "uph": 1056, "##ishing": 1057, "swishing": 1058, "##quishing": 1059, "##vishing": 1060, "##avishing": 1061, "ravishing": 1062, "##nquishing": 1063, "##ashing": 1064, "##ushing": 1065, "gushing": 1066, "##bashing": 1067, "abashing": 1068, "##lushing": 1069, "blushing": 1070, "##rushing": 1071, "brushing": 1072, "##inquishing": 1073, "##linquishing": 1074, "##anquishing": 1075, "vanquishing": 1076, "phi": 1077, "phil": 1078, "phila": 1079, "philo": 1080, "philos": 1081, "philoso": 1082, "philosoph": 1083, "philan": 1084, "philanth": 1085, "philand": 1086, "philanthr": 1087, "philanthro": 1088, "philanthrop": 1089, "philanthropi": 1090, "philanthropic": 1091, "philanthropis": 1092, "philanthropism": 1093, "philanthropist": 1094, "pho": 1095, "phy": 1096, "phys": 1097, "physi": 1098, "physic": 1099, "physio": 1100, "physiog": 1101, "physica": 1102, "physical": 1103, "physiogn": 1104, "physiogno": 1105, "physiognom": 1106, "physiognomy": 1107, "phot": 1108, "photo": 1109, "photog": 1110, "phon": 1111, "photogr": 1112, "photogra": 1113, "photograph": 1114, "photoc": 1115, "photoco": 1116, "photocop": 1117, "photocopy": 1118, "photocopying": 1119, "phl": 1120, "philosophi": 1121, "philosophic": 1122, "philosophica": 1123, "philosophical": 1124, "philosophically": 1125, "phr": 1126, "phra": 1127, "phras": 1128, "upho": 1129, "uphol": 1130, "uphols": 1131, "upholst": 1132, "rhapsodica": 1133, "rhapsodical": 1134, "rhapsodically": 1135, "##uishing": 1136, "##nguishing": 1137, "##inguishing": 1138, "##tinguishing": 1139, "extinguishing": 1140, "##stinguishing": 1141, "##anguishing": 1142, "languishing": 1143, "##istinguishing": 1144, "distinguishing": 1145, "wishing": 1146, "##king": 1147, "exhaling": 1148, "eph": 1149, "##lowing": 1150, "glowing": 1151, "flowing": 1152, "##flowing": 1153, "blowing": 1154, "##llowing": 1155, "##rflowing": 1156, "##ollowing": 1157, "following": 1158, "allowing": 1159, "##allowing": 1160, "swallowing": 1161, "##dowing": 1162, "##ndowing": 1163, "endowing": 1164, "##towing": 1165, "sowing": 1166, "bowing": 1167, "##stowing": 1168, "##rowing": 1169, "growing": 1170, "##nowing": 1171, "knowing": 1172, "##ching": 1173, "##chingly": 1174, "##nchingly": 1175, "##tchingly": 1176, "##inchingly": 1177, "##linchingly": 1178, "unflinchingly": 1179, "##itchingly": 1180, "##witchingly": 1181, "unfu": 1182, "unfur": 1183, "unfurl": 1184, "unfurling": 1185, "##cking": 1186, "##ucking": 1187, "sucking": 1188, "tucking": 1189, "##lucking": 1190, "plucking": 1191, "##icking": 1192, "kicking": 1193, "ticking": 1194, "licking": 1195, "tocking": 1196, "##ckingly": 1197, "##ockingly": 1198, "mockingly": 1199, "##licking": 1200, "clicking": 1201, "##olicking": 1202, "##llicking": 1203, "##ollicking": 1204, "rollicking": 1205, "picking": 1206, "##rolicking": 1207, "frolicking": 1208, "##ticking": 1209, "sticking": 1210, "##ricking": 1211, "tricking": 1212, "frolickingly": 1213, "##ocking": 1214, "mocking": 1215, "##locking": 1216, "##rlocking": 1217, "##acking": 1218, "##macking": 1219, "smacking": 1220, "##racking": 1221, "cracking": 1222, "equat": 1223, "equan": 1224, "equani": 1225, "equanim": 1226, "equanimi": 1227, "equanimit": 1228, "equanimity": 1229, "##bow": 1230, "##nbow": 1231, "##inbow": 1232, "##ainbow": 1233, "rainbow": 1234, "##ow\u2014": 1235, "##ow\u2014a": 1236, "##ow\u2014al": 1237, "##ow\u2014als": 1238, "##ow\u2014also": 1239, "##row\u2014also": 1240, "##rrow\u2014also": 1241, "##orrow\u2014also": 1242, "sorrow\u2014also": 1243, "ush": 1244, "sighs": 1245, "cousins": 1246, "jugs": 1247, "##mb": 1248, "emb": 1249, "##ymb": 1250, "symb": 1251, "symbi": 1252, "symbio": 1253, "symbo": 1254, "symbol": 1255, "symbolizing": 1256, "symbiot": 1257, "symbios": 1258, "symbioti": 1259, "symbiotic": 1260, "symbiotis": 1261, "symbiotism": 1262, "symbiosi": 1263, "symbiosis": 1264, "##umb": 1265, "numb": 1266, "humb": 1267, "dumb": 1268, "humbl": 1269, "##umbl": 1270, "##umbling": 1271, "cumb": 1272, "tumbl": 1273, "bumbl": 1274, "##cumb": 1275, "##ccumb": 1276, "##ccumbing": 1277, "##uccumbing": 1278, "succumbing": 1279, "##uccumb": 1280, "succumb": 1281, "thumb": 1282, "lumb": 1283, "##lumb": 1284, "slumb": 1285, "##numb": 1286, "##tnumb": 1287, "##utnumb": 1288, "outnumb": 1289, "rumbl": 1290, "mumbling": 1291, "dumbf": 1292, "dumbfo": 1293, "dumbfou": 1294, "dumbfoun": 1295, "dumbfound": 1296, "##rumbl": 1297, "crumbl": 1298, "##tumbl": 1299, "stumbl": 1300, "symbiotica": 1301, "symbiotical": 1302, "symbiotically": 1303, "##rumbling": 1304, "crumbling": 1305, "##tumbling": 1306, "stumbling": 1307, "utm": 1308, "utmo": 1309, "utmos": 1310, "utmost": 1311, "uto": 1312, "utop": 1313, "utopi": 1314, "utopia": 1315, "uti": 1316, "utiliz": 1317, "##aliz": 1318, "##iliz": 1319, "##viliz": 1320, "##oliz": 1321, "##doliz": 1322, "idoliz": 1323, "##tiliz": 1324, "##iviliz": 1325, "civiliz": 1326, "##rtiliz": 1327, "civiliza": 1328, "civilizat": 1329, "civilizati": 1330, "civilizatio": 1331, "civilization": 1332, "engl": 1333, "engli": 1334, "english": 1335, "engla": 1336, "englan": 1337, "england": 1338, "squ": 1339, "##bh": 1340, "abh": 1341, "abho": 1342, "abhor": 1343, "abhorr": 1344, "##pho": 1345, "##upho": 1346, "eupho": 1347, "euphor": 1348, "euphori": 1349, "euphoric": 1350, "euphoria": 1351, "##rpho": 1352, "##phob": 1353, "##orpho": 1354, "##morpho": 1355, "##ophob": 1356, "##opho": 1357, "##copho": 1358, "##acopho": 1359, "cacopho": 1360, "##ophobi": 1361, "##ophobic": 1362, "cacophon": 1363, "cacophony": 1364, "cacophoni": 1365, "cacophonic": 1366, "##phon": 1367, "##rophobic": 1368, "##trophobic": 1369, "##strophobic": 1370, "##ustrophobic": 1371, "##austrophobic": 1372, "##laustrophobic": 1373, "claustrophobic": 1374, "##morphos": 1375, "amorpho": 1376, "amorphou": 1377, "##morphosing": 1378, "amorphous": 1379, "amorphously": 1380, "##amorphos": 1381, "##tamorphos": 1382, "##amorphosing": 1383, "##tamorphosing": 1384, "##ashingly": 1385, "##bashingly": 1386, "abashingly": 1387, "king": 1388, "kingly": 1389, "##y\u2014": 1390, "##phy\u2014": 1391, "##aphy\u2014": 1392, "##aphy\u2014i": 1393, "##raphy\u2014i": 1394, "##graphy\u2014i": 1395, "##ography\u2014i": 1396, "##iography\u2014i": 1397, "biography\u2014i": 1398, "##y\u2014th": 1399, "##dy\u2014th": 1400, "##ody\u2014th": 1401, "body\u2014th": 1402, "##bl": 1403, "unb": 1404, "##abl": 1405, "comfortabl": 1406, "##bbl": 1407, "##bbling": 1408, "obl": 1409, "##ubbling": 1410, "bubbling": 1411, "obli": 1412, "obliv": 1413, "oblig": 1414, "obliging": 1415, "obligingly": 1416, "oblit": 1417, "oblivi": 1418, "oblivio": 1419, "obliviou": 1420, "oblivious": 1421, "oblivion": 1422, "##ibbling": 1423, "nibbling": 1424, "##obbling": 1425, "gobbling": 1426, "##ribbling": 1427, "dribbling": 1428, "obliviously": 1429, "##ibl": 1430, "##ngibl": 1431, "##cibl": 1432, "##xibl": 1433, "abl": 1434, "##ubl": 1435, "publ": 1436, "unbl": 1437, "subl": 1438, "##oubl": 1439, "doubl": 1440, "##angibl": 1441, "tangibl": 1442, "##tangibl": 1443, "publi": 1444, "publish": 1445, "public": 1446, "subli": 1447, "sublim": 1448, "subliming": 1449, "##ntangibl": 1450, "intangibl": 1451, "##roubl": 1452, "troubl": 1453, "publica": 1454, "publicat": 1455, "publicati": 1456, "publicatio": 1457, "publication": 1458, "##ncibl": 1459, "##scibl": 1460, "##ascibl": 1461, "##incibl": 1462, "##vincibl": 1463, "##nvincibl": 1464, "invincibl": 1465, "##rascibl": 1466, "irascibl": 1467, "##sibl": 1468, "##libl": 1469, "##ibling": 1470, "sibling": 1471, "##gibl": 1472, "##llibl": 1473, "##igibl": 1474, "##allibl": 1475, "##fallibl": 1476, "##ullibl": 1477, "gullibl": 1478, "##nfallibl": 1479, "infallibl": 1480, "##rigibl": 1481, "##rrigibl": 1482, "##orrigibl": 1483, "##corrigibl": 1484, "##ncorrigibl": 1485, "incorrigibl": 1486, "siblings": 1487, "##dbl": 1488, "##ldbl": 1489, "coldbl": 1490, "coldblo": 1491, "coldbloo": 1492, "coldblood": 1493, "##bb": 1494, "##bbing": 1495, "##obbing": 1496, "##ubb": 1497, "rubb": 1498, "##ubbo": 1499, "##tubbo": 1500, "stubbo": 1501, "stubbor": 1502, "stubborn": 1503, "##rubb": 1504, "##crubb": 1505, "scrubb": 1506, "##robbing": 1507, "sobbing": 1508, "bobbing": 1509, "throbbing": 1510, "##abbing": 1511, "##ubbing": 1512, "rubbing": 1513, "##tabbing": 1514, "stabbing": 1515, "##rubbing": 1516, "##crubbing": 1517, "scrubbing": 1518, "stubbornly": 1519, "##\u2014b": 1520, "ab": 1521, "ob": 1522, "obf": 1523, "obfu": 1524, "obfus": 1525, "obfusc": 1526, "obfusca": 1527, "obfuscat": 1528, "abo": 1529, "abou": 1530, "abov": 1531, "abom": 1532, "abod": 1533, "about": 1534, "abomi": 1535, "abomin": 1536, "abominably": 1537, "abominabl": 1538, "aboun": 1539, "abound": 1540, "abounding": 1541, "abor": 1542, "abori": 1543, "aborig": 1544, "aborigi": 1545, "aborigin": 1546, "aborigina": 1547, "aboriginal": 1548, "ebb": 1549, "ebbs": 1550, "##obb": 1551, "robb": 1552, "##abb": 1553, "rabb": 1554, "##bbo": 1555, "rabbi": 1556, "rabbit": 1557, "##ibbo": 1558, "ribbo": 1559, "ribbon": 1560, "##tabb": 1561, "stabb": 1562, "##labb": 1563, "flabb": 1564, "##robb": 1565, "throbb": 1566, "##obbi": 1567, "##obbish": 1568, "##obbishly": 1569, "##nobbishly": 1570, "snobbishly": 1571, "##\u2014bu": 1572, "##\u2014but": 1573, "##n\u2014but": 1574, "##an\u2014but": 1575, "man\u2014but": 1576, "eb": 1577, "ebu": 1578, "ebul": 1579, "ebull": 1580, "ebo": 1581, "eboo": 1582, "ebook": 1583, "ebulli": 1584, "##ssibl": 1585, "##ossibl": 1586, "possibl": 1587, "##possibl": 1588, "##mpossibl": 1589, "impossibl": 1590, "##nsibl": 1591, "##isibl": 1592, "##visibl": 1593, "visibl": 1594, "##nvisibl": 1595, "invisibl": 1596, "abu": 1597, "##obbl": 1598, "gobbl": 1599, "wobbl": 1600, "##ibbl": 1601, "##ubbl": 1602, "rubbl": 1603, "bubbl": 1604, "##ribbl": 1605, "dribbl": 1606, "##cribbl": 1607, "scribbl": 1608, "bibl": 1609, "##dibl": 1610, "edibl": 1611, "##udibl": 1612, "##audibl": 1613, "##naudibl": 1614, "inaudibl": 1615, "##tibl": 1616, "##ptibl": 1617, "##nibl": 1618, "##rnibl": 1619, "abus": 1620, "abun": 1621, "abund": 1622, "abunda": 1623, "abundan": 1624, "abundanc": 1625, "abundant": 1626, "abundantly": 1627, "publications": 1628, "obs": 1629, "obso": 1630, "obsc": 1631, "obscu": 1632, "obsol": 1633, "obscur": 1634, "obscuring": 1635, "obn": 1636, "obno": 1637, "obnox": 1638, "obnoxi": 1639, "obnoxio": 1640, "obnoxiou": 1641, "obnoxious": 1642, "obnoxiously": 1643, "obd": 1644, "obdu": 1645, "obdur": 1646, "obdura": 1647, "obdurat": 1648, "##lashing": 1649, "splashing": 1650, "clashing": 1651, "flashing": 1652, "##abbl": 1653, "squabbl": 1654, "unfa": 1655, "unfath": 1656, "unfatho": 1657, "unfathom": 1658, "unfathomabl": 1659, "unfathomably": 1660, "unfai": 1661, "unfail": 1662, "unfailing": 1663, "unfailingly": 1664, "unfl": 1665, "unfli": 1666, "unflin": 1667, "unflinching": 1668, "unfo": 1669, "unfor": 1670, "unforg": 1671, "unfol": 1672, "unfold": 1673, "unfort": 1674, "unfortu": 1675, "unforgi": 1676, "unforgiv": 1677, "unforgivably": 1678, "unforgivabl": 1679, "unforgiving": 1680, "unforgivingly": 1681, "unfortun": 1682, "unfortuna": 1683, "unfortunat": 1684, "##orribly": 1685, "horribly": 1686, "##udibly": 1687, "##audibly": 1688, "##naudibly": 1689, "inaudibly": 1690, "jui": 1691, "juic": 1692, "juicy": 1693, "jut": 1694, "jun": 1695, "junk": 1696, "junc": 1697, "junct": 1698, "junctu": 1699, "junctur": 1700, "symboli": 1701, "symbolis": 1702, "symbolism": 1703, "squa": 1704, "squash": 1705, "squal": 1706, "squali": 1707, "squalid": 1708, "squall": 1709, "squalidly": 1710, "squan": 1711, "squand": 1712, "squar": 1713, "squat": 1714, "##lishing": 1715, "##nishing": 1716, "##mishing": 1717, "##amishing": 1718, "famishing": 1719, "##rishing": 1720, "##urishing": 1721, "nourishing": 1722, "in": 1723, "inf": 1724, "ing": 1725, "ingr": 1726, "infi": 1727, "infin": 1728, "infini": 1729, "infinit": 1730, "infid": 1731, "infil": 1732, "infilt": 1733, "infir": 1734, "infirm": 1735, "infiltr": 1736, "infiltra": 1737, "infiltrat": 1738, "infiltrating": 1739, "if": 1740, "inh": 1741, "inha": 1742, "inhab": 1743, "inhal": 1744, "inhaling": 1745, "inhabi": 1746, "inhabit": 1747, "inhabiting": 1748, "uxoriousn": 1749, "##ff": 1750, "eff": 1751, "coff": 1752, "effu": 1753, "efful": 1754, "effulg": 1755, "effus": 1756, "effusi": 1757, "effusiv": 1758, "coffi": 1759, "coffin": 1760, "##uff": 1761, "puff": 1762, "suff": 1763, "ruff": 1764, "ruffl": 1765, "cuff": 1766, "guff": 1767, "cuffl": 1768, "buff": 1769, "buffo": 1770, "buffoo": 1771, "buffoon": 1772, "guffa": 1773, "guffaw": 1774, "guffaws": 1775, "cuffli": 1776, "cufflin": 1777, "cufflink": 1778, "cufflinks": 1779, "##uffing": 1780, "##tuffing": 1781, "stuffing": 1782, "##iff": 1783, "diff": 1784, "##ffably": 1785, "aff": 1786, "affabl": 1787, "whiff": 1788, "affably": 1789, "diffu": 1790, "##aff": 1791, "baff": 1792, "baffl": 1793, "baffling": 1794, "saff": 1795, "diffus": 1796, "diffusing": 1797, "affl": 1798, "##affi": 1799, "##affic": 1800, "##iffing": 1801, "##niffing": 1802, "sniffing": 1803, "##raffic": 1804, "traffic": 1805, "saffr": 1806, "saffro": 1807, "saffron": 1808, "affli": 1809, "afflic": 1810, "afflu": 1811, "afflict": 1812, "afflicti": 1813, "afflictio": 1814, "affliction": 1815, "##diff": 1816, "indiff": 1817, "##niff": 1818, "sniff": 1819, "##liff": 1820, "cliff": 1821, "cliffs": 1822, "affo": 1823, "affor": 1824, "afford": 1825, "affording": 1826, "##fu": 1827, "##ful": 1828, "##fully": 1829, "##ightfully": 1830, "##rightfully": 1831, "frightfully": 1832, "##fut": 1833, "##futably": 1834, "##futabl": 1835, "##ofu": 1836, "##fum": 1837, "##fug": 1838, "##ofus": 1839, "##rofus": 1840, "profus": 1841, "##rfum": 1842, "4f": 1843, "4ft": 1844, "##thful": 1845, "##uthful": 1846, "youthful": 1847, "##ithful": 1848, "##aithful": 1849, "faithful": 1850, "##ruthful": 1851, "truthful": 1852, "##outhful": 1853, "mouthful": 1854, "##truthful": 1855, "untruthful": 1856, "mouthfuls": 1857, "inhu": 1858, "inhum": 1859, "inhuma": 1860, "inhuman": 1861, "inhumani": 1862, "inhumanit": 1863, "inhumanity": 1864, "con": 1865, "conqu": 1866, "confu": 1867, "confus": 1868, "confusi": 1869, "confusio": 1870, "confusion": 1871, "conf": 1872, "conv": 1873, "conc": 1874, "confr": 1875, "confro": 1876, "confron": 1877, "confront": 1878, "confi": 1879, "config": 1880, "configu": 1881, "confo": 1882, "confou": 1883, "confoun": 1884, "confound": 1885, "configur": 1886, "configura": 1887, "configurat": 1888, "configurati": 1889, "configuratio": 1890, "configuration": 1891, "confin": 1892, "confining": 1893, "confis": 1894, "confisc": 1895, "confid": 1896, "confiding": 1897, "confisca": 1898, "confiscat": 1899, "confronting": 1900, "##ruff": 1901, "##druff": 1902, "##ndruff": 1903, "##tuff": 1904, "stuff": 1905, "##andruff": 1906, "dandruff": 1907, "col": 1908, "colo": 1909, "cold": 1910, "coll": 1911, "color": 1912, "color\u2014": 1913, "color\u2014th": 1914, "color\u2014t": 1915, "color\u2014to": 1916, "color\u2014tog": 1917, "colos": 1918, "coloss": 1919, "colossa": 1920, "colossal": 1921, "##bably": 1922, "##ibably": 1923, "##ribably": 1924, "##cribably": 1925, "##scribably": 1926, "##rbably": 1927, "##urbably": 1928, "##turbably": 1929, "##rturbably": 1930, "ingra": 1931, "ingrat": 1932, "ingrati": 1933, "ingratia": 1934, "ingratiat": 1935, "ingratiating": 1936, "ingratiatingly": 1937, "ingrai": 1938, "ingrain": 1939, "on": 1940, "only": 1941, "om": 1942, "omn": 1943, "omni": 1944, "omnip": 1945, "omnis": 1946, "omnisc": 1947, "omnisci": 1948, "omi": 1949, "omin": 1950, "omino": 1951, "ominou": 1952, "ominous": 1953, "ominously": 1954, "omnipo": 1955, "omnipot": 1956, "omnipr": 1957, "ov": 1958, "oth": 1959, "op": 1960, "opp": 1961, "oppo": 1962, "oppr": 1963, "oppor": 1964, "opport": 1965, "opportu": 1966, "opportun": 1967, "oppos": 1968, "opportuni": 1969, "opportunit": 1970, "opportunity": 1971, "opportuniti": 1972, "opposi": 1973, "opposit": 1974, "ou": 1975, "out": 1976, "our": 1977, "oun": 1978, "ounc": 1979, "or": 1980, "orph": 1981, "org": 1982, "ox": 1983, "oxy": 1984, "oxyg": 1985, "oc": 1986, "orpha": 1987, "orphan": 1988, "orga": 1989, "organ": 1990, "organiz": 1991, "organiza": 1992, "organizat": 1993, "organizati": 1994, "organizatio": 1995, "organization": 1996, "organizations": 1997, "organi": 1998, "organis": 1999, "organism": 2000, "##sph": 2001, "##osph": 2002, "##mosph": 2003, "##tmosph": 2004, "atmosph": 2005, "##asph": 2006, "##lasph": 2007, "blasph": 2008, "##phy": 2009, "##aphy": 2010, "##ophy": 2011, "##raphy": 2012, "##graphy": 2013, "##rophy": 2014, "trophy": 2015, "##ography": 2016, "##iography": 2017, "biography": 2018, "##igraphy": 2019, "##ligraphy": 2020, "##lligraphy": 2021, "##alligraphy": 2022, "calligraphy": 2023, "##night": 2024, "##dnight": 2025, "##idnight": 2026, "midnight": 2027, "##tnight": 2028, "##tnights": 2029, "##rnight": 2030, "##rtnights": 2031, "##ortnights": 2032, "fortnights": 2033, "##ightf": 2034, "##ightfo": 2035, "##aightfo": 2036, "##raightfo": 2037, "##traightfo": 2038, "straightfo": 2039, "straightfor": 2040, "straightforw": 2041, "straightforwa": 2042, "straightforwar": 2043, "straightforward": 2044, "straightforwardn": 2045, "oppro": 2046, "opprob": 2047, "opprobr": 2048, "opprobri": 2049, "opprobrio": 2050, "opprobriou": 2051, "opprobrious": 2052, "im": 2053, "imp": 2054, "imm": 2055, "ima": 2056, "imag": 2057, "immo": 2058, "immor": 2059, "immort": 2060, "immortaliz": 2061, "immorta": 2062, "immortal": 2063, "immortally": 2064, "immortalizing": 2065, "immora": 2066, "immoral": 2067, "immorally": 2068, "imagi": 2069, "imagin": 2070, "imagina": 2071, "imaginat": 2072, "imaginati": 2073, "imaginatio": 2074, "imagination": 2075, "##pp": 2076, "##ppably": 2077, "##oppably": 2078, "##toppably": 2079, "##stoppably": 2080, "unstoppably": 2081, "app": 2082, "##ppabl": 2083, "##oppabl": 2084, "##toppabl": 2085, "##stoppabl": 2086, "unstoppabl": 2087, "##pping": 2088, "unp": 2089, "##app": 2090, "happ": 2091, "chapp": 2092, "happy": 2093, "##sapp": 2094, "##isapp": 2095, "disapp": 2096, "happi": 2097, "happin": 2098, "happily": 2099, "##rapp": 2100, "trapp": 2101, "grapp": 2102, "grappl": 2103, "##trapp": 2104, "wrapp": 2105, "strapp": 2106, "##ntrapp": 2107, "entrapp": 2108, "##lapp": 2109, "slapp": 2110, "flapp": 2111, "##napp": 2112, "snapp": 2113, "##ipp": 2114, "zipp": 2115, "##shipp": 2116, "whipp": 2117, "ripp": 2118, "epp": 2119, "eppi": 2120, "tipp": 2121, "##rshipp": 2122, "##orshipp": 2123, "worshipp": 2124, "rippl": 2125, "##ippl": 2126, "##ippling": 2127, "##lipp": 2128, "slipp": 2129, "dipp": 2130, "sipp": 2131, "##rippl": 2132, "crippl": 2133, "##rippling": 2134, "crippling": 2135, "##ripp": 2136, "##tripp": 2137, "stripp": 2138, "##upp": 2139, "supp": 2140, "pupp": 2141, "topp": 2142, "toppl": 2143, "toppling": 2144, "##ppy": 2145, "##oppy": 2146, "choppy": 2147, "##opp": 2148, "chopp": 2149, "##shopp": 2150, "hopp": 2151, "popp": 2152, "##sshopp": 2153, "##asshopp": 2154, "##rasshopp": 2155, "grasshopp": 2156, "##topp": 2157, "stopp": 2158, "##lopp": 2159, "slopp": 2160, "stoppa": 2161, "stoppag": 2162, "sloppi": 2163, "sloppily": 2164, "suppo": 2165, "supply": 2166, "suppor": 2167, "support": 2168, "supporting": 2169, "suppl": 2170, "##ipping": 2171, "zipping": 2172, "##shipping": 2173, "ripping": 2174, "whipping": 2175, "sipping": 2176, "##rshipping": 2177, "##orshipping": 2178, "worshipping": 2179, "##ripping": 2180, "tripping": 2181, "##tripping": 2182, "stripping": 2183, "imb": 2184, "imbi": 2185, "imbib": 2186, "imbibing": 2187, "unpr": 2188, "unpa": 2189, "unpar": 2190, "unpara": 2191, "unparal": 2192, "unparall": 2193, "en": 2194, "ench": 2195, "encha": 2196, "enchan": 2197, "enchant": 2198, "enchanting": 2199, "enchantm": 2200, "enchantingly": 2201, "ey": 2202, "ensh": 2203, "enshr": 2204, "enshro": 2205, "enshrou": 2206, "enshroud": 2207, "enshrouding": 2208, "##opping": 2209, "chopping": 2210, "shopping": 2211, "##ropping": 2212, "cropping": 2213, "dropping": 2214, "##topping": 2215, "stopping": 2216, "topping": 2217, "toppings": 2218, "##apping": 2219, "sapping": 2220, "##lapping": 2221, "flapping": 2222, "##napping": 2223, "snapping": 2224, "##rapping": 2225, "##crapping": 2226, "scrapping": 2227, "equally": 2228, "em": 2229, "emp": 2230, "empow": 2231, "emu": 2232, "emul": 2233, "emula": 2234, "emulat": 2235, "ea": 2236, "each": 2237, "ear": 2238, "earth": 2239, "earthqu": 2240, "eag": 2241, "eagl": 2242, "earth\u2014": 2243, "earthqua": 2244, "earthquak": 2245, "eg": 2246, "ech": 2247, "echo": 2248, "eas": 2249, "easy": 2250, "eat": 2251, "eating": 2252, "ec": 2253, "ecs": 2254, "ecl": 2255, "ecc": 2256, "ecu": 2257, "ecum": 2258, "ecst": 2259, "ecsta": 2260, "ecstat": 2261, "ecstati": 2262, "ecstatic": 2263, "ecstas": 2264, "ecstasy": 2265, "ecstasi": 2266, "eth": 2267, "easing": 2268, "el": 2269, "ep": 2270, "epi": 2271, "epit": 2272, "epic": 2273, "epid": 2274, "epito": 2275, "epitom": 2276, "epitomizing": 2277, "unc": 2278, "unco": 2279, "uncon": 2280, "unconqu": 2281, "uncou": 2282, "uncouth": 2283, "uncom": 2284, "uncomp": 2285, "uncouthly": 2286, "uncoun": 2287, "uncount": 2288, "uncountabl": 2289, "uncont": 2290, "unconv": 2291, "uncontr": 2292, "uncontro": 2293, "uncontrol": 2294, "uncontroll": 2295, "uncontrollably": 2296, "uncontrollabl": 2297, "uncompl": 2298, "uncompla": 2299, "uncomplai": 2300, "uncomplain": 2301, "uncomplaining": 2302, "uncomplainingly": 2303, "uncompr": 2304, "uncompro": 2305, "uncomprom": 2306, "uncompromi": 2307, "uncompromis": 2308, "uncompromising": 2309, "uncompromisingly": 2310, "uncons": 2311, "unconsc": 2312, "unconsu": 2313, "unconsum": 2314, "uncond": 2315, "unconsci": 2316, "unconscio": 2317, "unconsciou": 2318, "uncondi": 2319, "uncondit": 2320, "unconditi": 2321, "unconditio": 2322, "uncondition": 2323, "unconditiona": 2324, "unconditional": 2325, "unconditionally": 2326, "unconscious": 2327, "unconsciousn": 2328, "##ith": 2329, "with": 2330, "eith": 2331, "##with": 2332, "##ngwith": 2333, "##ongwith": 2334, "##longwith": 2335, "alongwith": 2336, "##ngth": 2337, "##\u2014th": 2338, "enth": 2339, "enthr": 2340, "enthu": 2341, "enthra": 2342, "enthral": 2343, "enthrall": 2344, "enthralling": 2345, "enthrallm": 2346, "enthrallingly": 2347, "enthus": 2348, "enthusing": 2349, "enthusi": 2350, "enthusia": 2351, "enthusias": 2352, "enthusiasm": 2353, "enthusingly": 2354, "\u2013th": 2355, "##\u2014tha": 2356, "##\u2014that": 2357, "##d\u2014that": 2358, "##nd\u2014that": 2359, "##ind\u2014that": 2360, "kind\u2014that": 2361, "##ish": 2362, "##quish": 2363, "swish": 2364, "##ggish": 2365, "##uggish": 2366, "##uggishly": 2367, "##luggishly": 2368, "sluggishly": 2369, "##luggish": 2370, "sluggish": 2371, "##nquish": 2372, "wish": 2373, "##inquish": 2374, "##linquish": 2375, "##anquish": 2376, "vanquish": 2377, "##iph": 2378, "##ciph": 2379, "##riph": 2380, "##pph": 2381, "##pphi": 2382, "##apphi": 2383, "sapphi": 2384, "sapphir": 2385, "##lph": 2386, "alph": 2387, "sph": 2388, "##olph": 2389, "dolph": 2390, "dolphi": 2391, "dolphin": 2392, "alpha": 2393, "alphab": 2394, "##pha": 2395, "##oph": 2396, "soph": 2397, "sophi": 2398, "##phan": 2399, "apha": 2400, "##phant": 2401, "aphas": 2402, "aphasi": 2403, "aphasia": 2404, "sophis": 2405, "sophist": 2406, "sophisti": 2407, "sophistic": 2408, "sophistica": 2409, "sophisticat": 2410, "ent": 2411, "entw": 2412, "entwi": 2413, "entwin": 2414, "entwining": 2415, "enti": 2416, "entir": 2417, "entit": 2418, "entity": 2419, "entic": 2420, "enticing": 2421, "entiti": 2422, "end": 2423, "endow": 2424, "endowm": 2425, "env": 2426, "envi": 2427, "envir": 2428, "enviro": 2429, "environ": 2430, "environm": 2431, "envis": 2432, "envio": 2433, "enviou": 2434, "envisa": 2435, "envisag": 2436, "envious": 2437, "enviously": 2438, "enc": 2439, "enco": 2440, "encou": 2441, "encom": 2442, "encomp": 2443, "encoun": 2444, "encount": 2445, "encompa": 2446, "encompas": 2447, "encompass": 2448, "encompassing": 2449, "encour": 2450, "encoura": 2451, "encourag": 2452, "enca": 2453, "encap": 2454, "encaps": 2455, "encapsu": 2456, "encapsul": 2457, "encapsula": 2458, "encapsulat": 2459, "encapsulating": 2460, "enabl": 2461, "enabling": 2462, "enci": 2463, "encl": 2464, "enclo": 2465, "enclos": 2466, "enclosu": 2467, "encir": 2468, "encirc": 2469, "encircl": 2470, "encircling": 2471, "encr": 2472, "encro": 2473, "encroa": 2474, "encroaching": 2475, "enclosur": 2476, "colli": 2477, "collid": 2478, "collis": 2479, "collisi": 2480, "collisio": 2481, "collision": 2482, "collisions": 2483, "##s\u2014that": 2484, "##s\u2014th": 2485, "##ts\u2014th": 2486, "##nts\u2014th": 2487, "ki": 2488, "kick": 2489, "kn": 2490, "know": 2491, "kin": 2492, "kin\u2014": 2493, "kind": 2494, "kin\u2014a": 2495, "kin\u2014an": 2496, "kin\u2014and": 2497, "kil": 2498, "kill": 2499, "kilo": 2500, "kilom": 2501, "killing": 2502, "kis": 2503, "kit": 2504, "kitch": 2505, "kiss": 2506, "kissing": 2507, "##ifu": 2508, "bifu": 2509, "bifur": 2510, "bifurc": 2511, "bifurca": 2512, "bifurcat": 2513, "bifurcating": 2514, "##fus": 2515, "##fusing": 2516, "##fud": 2517, "##fudd": 2518, "##fuddl": 2519, "##fun": 2520, "##func": 2521, "##funct": 2522, "##functi": 2523, "##functio": 2524, "##function": 2525, "##functiona": 2526, "##functional": 2527, "##sfunctional": 2528, "##ysfunctional": 2529, "dysfunctional": 2530, "enticingly": 2531, "##if": 2532, "knif": 2533, "lif": 2534, "gif": 2535, "gift": 2536, "##ify": 2537, "##ifying": 2538, "justifying": 2539, "##cify": 2540, "##cifying": 2541, "##ucifying": 2542, "##acifying": 2543, "pacifying": 2544, "##rucifying": 2545, "crucifying": 2546, "##acify": 2547, "pacify": 2548, "##ucify": 2549, "##rucify": 2550, "crucify": 2551, "kingf": 2552, "kingfish": 2553, "##tifying": 2554, "##ctifying": 2555, "##uctifying": 2556, "##ructifying": 2557, "fructifying": 2558, "##lifying": 2559, "##llifying": 2560, "##ollifying": 2561, "mollifying": 2562, "##rifying": 2563, "##urifying": 2564, "purifying": 2565, "##rrifying": 2566, "##orrifying": 2567, "horrifying": 2568, "##lify": 2569, "##llify": 2570, "##ollify": 2571, "mollify": 2572, "##ullify": 2573, "nullify": 2574, "knifing": 2575, "##atifying": 2576, "##rtifying": 2577, "##ortifying": 2578, "mortifying": 2579, "##ratifying": 2580, "gratifying": 2581, "##tify": 2582, "##ctify": 2583, "##uctify": 2584, "##ructify": 2585, "fructify": 2586, "##rify": 2587, "##dify": 2588, "##idify": 2589, "##lidify": 2590, "##olidify": 2591, "solidify": 2592, "##urify": 2593, "purify": 2594, "##trify": 2595, "##rtify": 2596, "##utify": 2597, "##ortify": 2598, "fortify": 2599, "##autify": 2600, "af": 2601, "aft": 2602, "afr": 2603, "afra": 2604, "afri": 2605, "afric": 2606, "afrai": 2607, "afraid": 2608, "africa": 2609, "##ikh": 2610, "nikh": 2611, "##nikh": 2612, "nikhi": 2613, "nikhil": 2614, "nikhilp": 2615, "##nikhi": 2616, "##nikhil": 2617, "##nikhilp": 2618, "##tnikhilp": 2619, "nikhilpa": 2620, "##tnikhilpa": 2621, "nikhilpar": 2622, "##tnikhilpar": 2623, "##ich": 2624, "which": 2625, "rich": 2626, "##wich": 2627, "##dwich": 2628, "##ndwich": 2629, "##andwich": 2630, "sandwich": 2631, "##rich": 2632, "enrich": 2633, "enrichm": 2634, "obst": 2635, "obstr": 2636, "obsta": 2637, "obstac": 2638, "obstacl": 2639, "obstru": 2640, "obstruc": 2641, "obstruct": 2642, "obstructing": 2643, "skil": 2644, "skill": 2645, "skillful": 2646, "skillfully": 2647, "##ifl": 2648, "##rifl": 2649, "trifl": 2650, "##iflu": 2651, "##ifling": 2652, "##liflu": 2653, "##lliflu": 2654, "##llifluo": 2655, "##llifluou": 2656, "##tifling": 2657, "stifling": 2658, "##tifl": 2659, "stifl": 2660, "##llifluous": 2661, "##llifluously": 2662, "##ifi": 2663, "##ific": 2664, "##cifi": 2665, "##ucifi": 2666, "##acifi": 2667, "pacifi": 2668, "##lif": 2669, "uplif": 2670, "wif": 2671, "##wif": 2672, "uplift": 2673, "uplifting": 2674, "##olif": 2675, "##dlif": 2676, "##ldlif": 2677, "##ildlif": 2678, "wildlif": 2679, "##rolif": 2680, "prolif": 2681, "##rucifi": 2682, "crucifi": 2683, "unif": 2684, "unifo": 2685, "unifor": 2686, "uniform": 2687, "##rif": 2688, "drif": 2689, "##cif": 2690, "##ocif": 2691, "vocif": 2692, "drift": 2693, "drifting": 2694, "##trif": 2695, "strif": 2696, "##arif": 2697, "sharif": 2698, "##tifi": 2699, "##rtifi": 2700, "##ortifi": 2701, "fortifi": 2702, "##nif": 2703, "##anif": 2704, "manif": 2705, "##tif": 2706, "##ltif": 2707, "##ultif": 2708, "multif": 2709, "multifa": 2710, "##aif": 2711, "waif": 2712, "multifar": 2713, "multifari": 2714, "multifario": 2715, "multifariou": 2716, "multifarious": 2717, "##lifi": 2718, "##llifi": 2719, "##ollifi": 2720, "mollifi": 2721, "##sifi": 2722, "##rifi": 2723, "##trifi": 2724, "##nsifi": 2725, "##rsifi": 2726, "compar": 2727, "comparing": 2728, "compan": 2729, "company": 2730, "compani": 2731, "companio": 2732, "companion": 2733, "companionsh": 2734, "companionshi": 2735, "companionship": 2736, "compat": 2737, "compac": 2738, "compact": 2739, "compactly": 2740, "compatr": 2741, "compatri": 2742, "compatrio": 2743, "compatriot": 2744, "compatriots": 2745, "echoing": 2746, "nothingn": 2747, "compu": 2748, "comput": 2749, "go": 2750, "god": 2751, "godh": 2752, "going": 2753, "effo": 2754, "effor": 2755, "effort": 2756, "cov": 2757, "##thing": 2758, "##thing\u2014": 2759, "##ything\u2014": 2760, "##ything": 2761, "##ything\u2014a": 2762, "##ything\u2014an": 2763, "##ything\u2014any": 2764, "##ything\u2014anyt": 2765, "##ything\u2014anyti": 2766, "##ything\u2014anytim": 2767, "##rything\u2014anytim": 2768, "##nything": 2769, "anything": 2770, "##rything": 2771, "earn": 2772, "earning": 2773, "ears": 2774, "eard": 2775, "eardr": 2776, "eardru": 2777, "eardrum": 2778, "early": 2779, "ega": 2780, "egal": 2781, "egali": 2782, "egalit": 2783, "egalita": 2784, "egalitar": 2785, "egalitari": 2786, "egalitaria": 2787, "egalitarian": 2788, "egr": 2789, "ego": 2790, "exi": 2791, "exis": 2792, "exist": 2793, "exit": 2794, "exiting": 2795, "existing": 2796, "exu": 2797, "exub": 2798, "exul": 2799, "exud": 2800, "exult": 2801, "exulta": 2802, "exultat": 2803, "exultating": 2804, "exultati": 2805, "exultatio": 2806, "exultation": 2807, "exultatingly": 2808, "exc": 2809, "wa": 2810, "way\u2014": 2811, "way\u2014a": 2812, "way\u2014an": 2813, "way\u2014and": 2814, "was": 2815, "wax": 2816, "way": 2817, "wak": 2818, "waf": 2819, "waft": 2820, "wafting": 2821, "wav": 2822, "wash": 2823, "washing": 2824, "wagg": 2825, "##ifica": 2826, "orific": 2827, "##ifical": 2828, "##ifically": 2829, "##ificat": 2830, "##nifica": 2831, "##gnifica": 2832, "##gnifican": 2833, "##gnificanc": 2834, "##ignificanc": 2835, "significanc": 2836, "##mificat": 2837, "##mificati": 2838, "##mificatio": 2839, "##mification": 2840, "##amification": 2841, "ramification": 2842, "##tificat": 2843, "##cificat": 2844, "##ucificat": 2845, "##lificat": 2846, "##plificat": 2847, "##mplificat": 2848, "##llificat": 2849, "##ollificat": 2850, "mollificat": 2851, "mollificati": 2852, "mollificatio": 2853, "mollification": 2854, "##mplificati": 2855, "##mplificatio": 2856, "##mplification": 2857, "##ucificati": 2858, "##ucificatio": 2859, "##ucification": 2860, "##rucification": 2861, "crucification": 2862, "##rtificat": 2863, "##ctificat": 2864, "##uctificat": 2865, "##tificati": 2866, "##tificatio": 2867, "##tification": 2868, "##uctificati": 2869, "##uctificatio": 2870, "##uctification": 2871, "##atification": 2872, "##ratification": 2873, "gratification": 2874, "##ructification": 2875, "fructification": 2876, "##nific": 2877, "##gnific": 2878, "##agnific": 2879, "magnific": 2880, "##rifically": 2881, "##lifically": 2882, "##olifically": 2883, "##tifically": 2884, "##ntifically": 2885, "##rolifically": 2886, "prolifically": 2887, "##rrifically": 2888, "##orrifically": 2889, "horrifically": 2890, "##rific": 2891, "##crific": 2892, "##acrific": 2893, "sacrific": 2894, "sacrificing": 2895, "##rrific": 2896, "##orrific": 2897, "horrific": 2898, "##dific": 2899, "edific": 2900, "##lific": 2901, "##olific": 2902, "##ifici": 2903, "##ificia": 2904, "##ificial": 2905, "##ificially": 2906, "##tificial": 2907, "##tificially": 2908, "##rolific": 2909, "prolific": 2910, "##rtificial": 2911, "artificial": 2912, "##rtificially": 2913, "artificially": 2914, "##ack": 2915, "jack": 2916, "jackf": 2917, "lack": 2918, "back": 2919, "tack": 2920, "tackl": 2921, "backw": 2922, "backwa": 2923, "##lack": 2924, "black": 2925, "shack": 2926, "##back": 2927, "shackl": 2928, "pack": 2929, "##rback": 2930, "backwar": 2931, "backward": 2932, "backwards": 2933, "jackfr": 2934, "jackfru": 2935, "jackfrui": 2936, "jackfruit": 2937, "lacka": 2938, "lackad": 2939, "lackl": 2940, "lacklu": 2941, "lackada": 2942, "lackadai": 2943, "lackadais": 2944, "lackadaisi": 2945, "lackadaisic": 2946, "lackadaisica": 2947, "lackadaisical": 2948, "lackadaisically": 2949, "lacklus": 2950, "lacklust": 2951, "blackn": 2952, "euphorica": 2953, "euphorical": 2954, "euphorically": 2955, "philanthropica": 2956, "philanthropical": 2957, "philanthropically": 2958, "wo": 2959, "womb": 2960, "wou": 2961, "woul": 2962, "would": 2963, "woun": 2964, "wound": 2965, "would\u2014": 2966, "would\u2014a": 2967, "would\u2014at": 2968, "wor": 2969, "worsh": 2970, "worth": 2971, "working": 2972, "worthl": 2973, "worthy": 2974, "worshi": 2975, "worship": 2976, "worl": 2977, "work": 2978, "world": 2979, "wom": 2980, "won": 2981, "wond": 2982, "wov": 2983, "wok": 2984, "wol": 2985, "wolv": 2986, "woo": 2987, "wood": 2988, "woodp": 2989, "wool": 2990, "word": 2991, "wors": 2992, "worst": 2993, "worm": 2994, "wounds": 2995, "words": 2996, "##lizing": 2997, "##alizing": 2998, "##talizing": 2999, "##ntalizing": 3000, "##italizing": 3001, "##vitalizing": 3002, "##pitalizing": 3003, "##nalizing": 3004, "##ualizing": 3005, "##ializing": 3006, "##cializing": 3007, "##ocializing": 3008, "socializing": 3009, "##antalizing": 3010, "tantalizing": 3011, "##apitalizing": 3012, "capitalizing": 3013, "##sualizing": 3014, "##isualizing": 3015, "visualizing": 3016, "##rizing": 3017, "apprizing": 3018, "##mizing": 3019, "##imizing": 3020, "##omizing": 3021, "##domizing": 3022, "##odomizing": 3023, "sodomizing": 3024, "##timizing": 3025, "##ctimizing": 3026, "##ictimizing": 3027, "victimizing": 3028, "opu": 3029, "opul": 3030, "effortl": 3031, "cowardl": 3032, "cowardli": 3033, "cowardlin": 3034, "cowardi": 3035, "cowardic": 3036, "entr": 3037, "et": 3038, "es": 3039, "esc": 3040, "esca": 3041, "escap": 3042, "escaping": 3043, "escal": 3044, "escala": 3045, "escalat": 3046, "escalating": 3047, "ess": 3048, "est": 3049, "establ": 3050, "establish": 3051}